[PAD]	0
[UNK]	0
[BOS]	0
[EOS]	0
<sep>	0
<cls>	0
ng	-0
na	-1
▁m	-2
▁s	-3
▁t	-4
al	-5
he	-6
yo	-7
▁a	-8
ag	-9
an	-10
ea	-11
it	-12
▁na	-13
in	-14
re	-15
er	-16
is	-17
▁b	-18
▁u	-19
you	-20
▁mo	-21
▁you	-22
ho	-23
ka	-24
ni	-25
st	-26
▁w	-27
▁ng	-28
aa	-29
ap	-30
da	-31
ko	-32
ul	-33
▁M	-34
▁N	-35
aga	-36
ina	-37
ind	-38
ver	-39
▁bu	-40
▁ho	-41
▁is	-42
▁ma	-43
▁sa	-44
▁to	-45
▁ang	-46
am	-47
ar	-48
at	-49
dd	-50
il	-51
lp	-52
ly	-53
or	-54
ow	-55
pa	-56
sp	-57
ss	-58
▁G	-59
▁I	-60
▁P	-61
▁T	-62
▁W	-63
▁f	-64
▁l	-65
▁n	-66
ayo	-67
han	-68
ing	-69
rni	-70
ust	-71
▁he	-72
▁ko	-73
▁um	-74
ddre	-75
indi	-76
ital	-77
very	-78
▁the	-79
▁tul	-80
▁uni	-81
rning	-82
▁help	-83
▁nang	-84
▁very	-85
ddress	-86
spital	-87
▁umaga	-88
▁address	-89
▁morning	-90
ak	-91
as	-92
bi	-93
ch	-94
do	-95
dy	-96
ha	-97
id	-98
ik	-99
iu	-100
iy	-101
ku	-102
me	-103
nd	-104
od	-105
ot	-106
se	-107
si	-108
tu	-109
ve	-110
▁A	-111
▁C	-112
▁H	-113
▁S	-114
▁i	-115
▁o	-116
▁p	-117
aan	-118
aar	-119
ags	-120
aka	-121
and	-122
ari	-123
bag	-124
ber	-125
dad	-126
day	-127
ead	-128
eak	-129
ear	-130
eat	-131
hat	-132
her	-133
his	-134
hon	-135
iin	-136
ike	-137
ili	-138
ill	-139
ita	-140
ito	-141
ity	-142
ius	-143
iya	-144
kam	-145
kas	-146
kum	-147
lea	-148
low	-149
mor	-150
nap	-151
ome	-152
ong	-153
ood	-154
oul	-155
pay	-156
row	-157
uch	-158
ung	-159
▁We	-160
▁at	-161
▁ba	-162
▁br	-163
▁do	-164
▁ha	-165
▁ka	-166
▁me	-167
▁pa	-168
▁sp	-169
agan	-170
alam	-171
alap	-172
alis	-173
aram	-174
ayon	-175
dang	-176
eare	-177
eave	-178
erst	-179
hank	-180
here	-181
iint	-182
init	-183
kong	-184
mili	-185
ould	-186
sity	-187
tudy	-188
usta	-189
usto	-190
yong	-191
▁Can	-192
▁Maa	-193
▁Nag	-194
▁Nap	-195
▁Nas	-196
▁Pak	-197
▁She	-198
▁The	-199
▁are	-200
▁buy	-201
▁ear	-202
▁for	-203
▁hot	-204
▁how	-205
▁ito	-206
▁kum	-207
▁mas	-208
▁not	-209
▁und	-210
aaral	-211
agsal	-212
bagal	-213
bersi	-214
inabi	-215
iusap	-216
lease	-217
lowly	-218
nahon	-219
napin	-220
ungan	-221
▁Good	-222
▁find	-223
▁kong	-224
▁like	-225
▁more	-226
▁much	-227
▁pina	-228
▁said	-229
▁siya	-230
▁some	-231
▁tayo	-232
▁this	-233
▁tina	-234
▁weat	-235
▁what	-236
▁will	-237
▁your	-238
alamat	-239
alapit	-240
earest	-241
morrow	-242
▁Aalis	-243
▁Gusto	-244
▁Hindi	-245
▁Magan	-246
▁Maram	-247
▁Thank	-248
▁Where	-249
▁akong	-250
▁bread	-251
▁bukas	-252
▁early	-253
▁iyong	-254
▁leave	-255
▁maaga	-256
▁speak	-257
▁study	-258
▁today	-259
▁would	-260
akainit	-261
erstand	-262
indihan	-263
versity	-264
▁Maaari	-265
▁Nasaan	-266
▁Please	-267
▁bumili	-268
▁magsal	-269
▁naiint	-270
▁ngayon	-271
▁sinabi	-272
▁slowly	-273
▁tulong	-274
bersidad	-275
▁hanapin	-276
▁kumusta	-277
▁mabagal	-278
▁nearest	-279
▁ospital	-280
▁panahon	-281
▁pinakam	-282
▁salamat	-283
▁tinapay	-284
▁weather	-285
▁Maraming	-286
▁Pakiusap	-287
▁hospital	-288
▁studying	-289
▁tomorrow	-290
▁tulungan	-291
▁Magandang	-292
▁magsalita	-293
▁Napakainit	-294
▁understand	-295
▁university	-296
▁unibersidad	-297
▁naiintindihan	-298
▁pinakamalapit	-299
Aa	-300
Ca	-301
Go	-302
Gu	-303
Hi	-304
Ma	-305
Na	-306
Pa	-307
Pl	-308
Sh	-309
Th	-310
We	-311
Wh	-312
ab	-313
ad	-314
ah	-315
ai	-316
av	-317
ay	-318
ba	-319
be	-320
br	-321
bu	-322
de	-323
di	-324
dr	-325
el	-326
es	-327
fi	-328
fo	-329
ga	-330
gs	-331
hi	-332
ib	-333
ih	-334
ii	-335
iv	-336
ke	-337
ki	-338
la	-339
ld	-340
le	-341
li	-342
ll	-343
lo	-344
lu	-345
ma	-346
mi	-347
mo	-348
mu	-349
ne	-350
nk	-351
no	-352
nt	-353
om	-354
on	-355
oo	-356
os	-357
ou	-358
pe	-359
pi	-360
ra	-361
ri	-362
rl	-363
rn	-364
ro	-365
rr	-366
rs	-367
ry	-368
sa	-369
sl	-370
so	-371
ta	-372
th	-373
ti	-374
to	-375
ty	-376
uc	-377
ud	-378
uk	-379
um	-380
un	-381
ur	-382
us	-383
uy	-384
we	-385
wh	-386
wi	-387
wl	-388
wo	-389
ya	-390
yi	-391
▁d	-392
▁e	-393
▁h	-394
▁k	-395
▁v	-396
▁y	-397
Aal	-398
Can	-399
Hin	-400
Maa	-401
Mag	-402
Nag	-403
Nap	-404
She	-405
The	-406
Whe	-407
aaa	-408
aag	-409
ain	-410
aki	-411
ala	-412
ali	-413
ama	-414
ami	-415
ana	-416
ang	-417
ank	-418
apa	-419
asa	-420
der	-421
dre	-422
eas	-423
eav	-424
ers	-425
ery	-426
fin	-427
for	-428
gal	-429
hel	-430
hos	-431
hot	-432
how	-433
ida	-434
int	-435
iyo	-436
mag	-437
mal	-438
mil	-439
nab	-440
nah	-441
nai	-442
nak	-443
nea	-444
nga	-445
nib	-446
nit	-447
niv	-448
oda	-449
ore	-450
orr	-451
osp	-452
pea	-453
pin	-454
pit	-455
ral	-456
ram	-457
rea	-458
res	-459
rly	-460
sal	-461
sap	-462
sit	-463
sta	-464
sto	-465
tal	-466
tan	-467
the	-468
tin	-469
udy	-470
uka	-471
uld	-472
ulo	-473
ulu	-474
wea	-475
wly	-476
yon	-477
▁Go	-478
▁Gu	-479
▁Ma	-480
▁Na	-481
▁Pa	-482
▁Pl	-483
▁Th	-484
▁ad	-485
▁ak	-486
▁ar	-487
▁ea	-488
▁it	-489
▁ku	-490
▁li	-491
▁mu	-492
▁no	-493
▁si	-494
▁sl	-495
▁so	-496
▁st	-497
▁ta	-498
▁th	-499
▁ti	-500
▁tu	-501
▁un	-502
▁wh	-503
▁wi	-504
▁wo	-505
▁yo	-506
Hind	-507
aaar	-508
aaga	-509
agal	-510
akiu	-511
alit	-512
amat	-513
anda	-514
apit	-515
ease	-516
ersi	-517
find	-518
hana	-519
help	-520
ihan	-521
inab	-522
inap	-523
kain	-524
maga	-525
morr	-526
must	-527
naho	-528
naka	-529
nang	-530
nder	-531
ngan	-532
ning	-533
owly	-534
pana	-535
peak	-536
pina	-537
read	-538
ress	-539
rest	-540
sida	-541
spit	-542
stan	-543
tind	-544
vers	-545
ying	-546
your	-547
▁Aal	-548
▁Mag	-549
▁Mar	-550
▁Whe	-551
▁add	-552
▁ako	-553
▁bum	-554
▁hos	-555
▁iyo	-556
▁lea	-557
▁lik	-558
▁mab	-559
▁mag	-560
▁mor	-561
▁nai	-562
▁nea	-563
▁nga	-564
▁sai	-565
▁sal	-566
▁siy	-567
▁stu	-568
▁tom	-569
▁ver	-570
▁wea	-571
▁wil	-572
Hindi	-573
aaari	-574
akain	-575
akius	-576
alita	-577
aming	-578
apaka	-579
asaan	-580
dying	-581
early	-582
eathe	-583
hanap	-584
inaka	-585
inapa	-586
kamal	-587
niver	-588
sidad	-589
stand	-590
tindi	-591
▁Gust	-592
▁Plea	-593
▁Than	-594
▁buka	-595
▁hosp	-596
▁mags	-597
▁pana	-598
▁sina	-599
▁slow	-600
▁toda	-601
▁tulo	-602
▁tulu	-603
▁unib	-604
▁woul	-605
aganda	-606
eather	-607
inakam	-608
inapay	-609
kumust	-610
nderst	-611
▁addre	-612
▁hanap	-613
▁mabag	-614
▁morni	-615
▁naiin	-616
▁neare	-617
▁ngayo	-618
▁salam	-619
▁tomor	-620
araming	-621
kamalap	-622
kumusta	-623
ospital	-624
tudying	-625
▁Napaka	-626
▁Pakius	-627
▁tulung	-628
▁uniber	-629
▁univer	-630
agandang	-631
agsalita	-632
iintindi	-633
▁underst	-634
▁	-635
a	-636
n	-637
i	-638
o	-639
s	-640
e	-641
t	-642
g	-643
r	-644
u	-645
l	-646
m	-647
d	-648
h	-649
y	-650
.	-651
k	-652
p	-653
b	-654
w	-655
?	-656
v	-657
M	-658
N	-659
,	-660
G	-661
I	-662
P	-663
T	-664
W	-665
f	-666
-	-667
A	-668
C	-669
H	-670
S	-671
c	-672
